TRT-7203-EntropyCalibration2
input_image: 400054a6
ssd_300_vgg/conv_init/Conv2D__176:0: 400054a6
ssd_300_vgg/batch_norm_00/FusedBatchNorm:0: 3d7c3726
ssd_300_vgg/Relu:0: 3d7588c3
ssd_300_vgg/maxpool_0/MaxPool:0: 3d7588c3
ssd_300_vgg/conv_init_1/BiasAdd:0: 3daa95aa
ssd_300_vgg/resblock0_0/batch_norm_0/FusedBatchNorm:0: 3da1c34a
ssd_300_vgg/resblock0_0/Relu:0: 3d9422e9
ssd_300_vgg/resblock0_0/batch_norm_1/FusedBatchNorm:0: 3d54c50e
ssd_300_vgg/resblock0_0/Relu_1:0: 3d1a0a90
ssd_300_vgg/resblock0_0/conv_1/BiasAdd:0: 3da8ba47
ssd_300_vgg/resblock0_0/add:0: 3ddb7db6
ssd_300_vgg/resblock0_1/batch_norm_0/FusedBatchNorm:0: 3dc66737
ssd_300_vgg/resblock0_1/Relu:0: 3de5c931
ssd_300_vgg/resblock0_1/batch_norm_1/FusedBatchNorm:0: 3db3f094
ssd_300_vgg/resblock0_1/Relu_1:0: 3d5b2bde
ssd_300_vgg/resblock0_1/conv_1/BiasAdd:0: 3dfb2178
ssd_300_vgg/resblock0_1/add:0: 3e2fc4cc
ssd_300_vgg/resblock1_0/batch_norm_0/FusedBatchNorm:0: 3e1473af
ssd_300_vgg/resblock1_0/Relu:0: 3e17ddd6
ssd_300_vgg/resblock1_0/batch_norm_1/FusedBatchNorm:0: 3ddaa506
ssd_300_vgg/resblock1_0/Relu_1:0: 3d7b02d9
ssd_300_vgg/resblock1_0/conv_1/BiasAdd:0: 3e009692
Conv__322:0: 3d416a6c
ssd_300_vgg/resblock1_0/add:0: 3e2f25c7
ssd_300_vgg/resblock1_1/batch_norm_0/FusedBatchNorm:0: 3e276b78
ssd_300_vgg/resblock1_1/Relu:0: 3e36c52f
ssd_300_vgg/resblock1_1/batch_norm_1/FusedBatchNorm:0: 3e0ea572
ssd_300_vgg/resblock1_1/Relu_1:0: 3da0c09d
ssd_300_vgg/resblock1_1/conv_1/BiasAdd:0: 3e62ac61
ssd_300_vgg/resblock1_1/add:0: 3e930f61
ssd_300_vgg/resblock2_0/batch_norm_0/FusedBatchNorm:0: 3e41b809
ssd_300_vgg/resblock2_0/Relu:0: 3e596f80
ssd_300_vgg/resblock2_0/batch_norm_1/FusedBatchNorm:0: 3e00dd7f
ssd_300_vgg/resblock2_0/Relu_1:0: 3c75aab4
ssd_300_vgg/resblock2_0/conv_1/BiasAdd:0: 3d8c3e9b
ssd_300_vgg/block4_box/L2Normalization/l2_normalize/Square:0: 408e0b34
ssd_300_vgg/block4_box/L2Normalization/l2_normalize/Sum:0: 42918cbf
(Unnamed Layer* 37) [Constant]_output: 280de15b
Max__306:0: 42918cbf
ssd_300_vgg/block4_box/L2Normalization/l2_normalize/Rsqrt:0: 3fa69169
ssd_300_vgg/block4_box/L2Normalization/l2_normalize/Rsqrt__308:0: 3acf442f
ssd_300_vgg/block4_box/L2Normalization/l2_normalize:0: 3baec56a
(Unnamed Layer* 42) [Constant]_output: 3c5dac88
ssd_300_vgg/block4_box/L2Normalization/Mul:0: 3bbdcb0e
ssd_300_vgg/block4_box/conv_loc/BiasAdd:0: 3cf1c0ec
ssd_300_vgg/block4_box/conv_loc/BiasAdd__310:0: 3cf1c0ec
ls_0: 3cf1c0ec
ssd_300_vgg/block4_box/conv_cls/BiasAdd:0: 3dac5a33
ssd_300_vgg/block4_box/conv_cls/BiasAdd__313:0: 3dac5a33
ssd_300_vgg/softmax/Reshape:0: 3dac5a33
(Unnamed Layer* 51) [Softmax]_output: 3c00cdc7
ps_0: 3c00cdc7
Conv__330:0: 3cfa2ceb
ssd_300_vgg/resblock2_0/add:0: 3d9c1fbf
ssd_300_vgg/resblock2_1/batch_norm_0/FusedBatchNorm:0: 3e2bae23
ssd_300_vgg/resblock2_1/Relu:0: 3e2fdf5f
ssd_300_vgg/resblock2_1/batch_norm_1/FusedBatchNorm:0: 3e085513
ssd_300_vgg/resblock2_1/Relu_1:0: 3c94c98e
ssd_300_vgg/resblock2_1/conv_1/BiasAdd:0: 3cc63b7b
ssd_300_vgg/resblock2_1/add:0: 3d9ac47b
ssd_300_vgg/resblock_3_0/batch_norm_0/FusedBatchNorm:0: 3e121201
ssd_300_vgg/resblock_3_0/Relu:0: 3e1f41b6
ssd_300_vgg/resblock_3_0/batch_norm_1/FusedBatchNorm:0: 3e01f170
ssd_300_vgg/resblock_3_0/Relu_1:0: 3df7b008
ssd_300_vgg/resblock_3_0/conv_1/BiasAdd:0: 3e473227
ssd_300_vgg/block7_box/conv_loc/BiasAdd:0: 3d3df714
ssd_300_vgg/block7_box/conv_loc/BiasAdd__299:0: 3d3df714
ls_1: 3d3df714
ssd_300_vgg/block7_box/conv_cls/BiasAdd:0: 3e95b626
ssd_300_vgg/block7_box/conv_cls/BiasAdd__302:0: 3e95b626
ssd_300_vgg/softmax_1/Reshape:0: 3e95b626
(Unnamed Layer* 74) [Softmax]_output: 3c007f1d
ps_1: 3c007f1d
Conv__334:0: 3d927bd4
ssd_300_vgg/resblock_3_0/add:0: 3e73bfd2
ssd_300_vgg/resblock_3_1/batch_norm_0/FusedBatchNorm:0: 3e02052d
ssd_300_vgg/resblock_3_1/Relu:0: 3dfcaa47
ssd_300_vgg/resblock_3_1/batch_norm_1/FusedBatchNorm:0: 3e023067
ssd_300_vgg/resblock_3_1/Relu_1:0: 3e04886c
ssd_300_vgg/resblock_3_1/conv_1/BiasAdd:0: 3e80a1ec
ssd_300_vgg/resblock_3_1/add:0: 3ea58cff
ssd_300_vgg/conv8_1/BiasAdd:0: 3fb0d2d9
ssd_300_vgg/Relu_1:0: 3d9ff4bd
ssd_300_vgg/conv8_2/BiasAdd:0: 3d8e7d87
ssd_300_vgg/Relu_2:0: 3d87c39b
ssd_300_vgg/conv9_1/BiasAdd:0: 3d0b86c4
ssd_300_vgg/Relu_3:0: 3d1d9b48
Conv__341:0: 3d8e6b64
ssd_300_vgg/Relu_4:0: 3d8d2ccb
ssd_300_vgg/conv10_1/BiasAdd:0: 3d9195ae
ssd_300_vgg/Relu_5:0: 3d9195ae
Conv__345:0: 3df90bc4
ssd_300_vgg/Relu_6:0: 3df90bc4
ssd_300_vgg/gag:0: 3dad5d62
ssd_300_vgg/block11_box/conv_loc/BiasAdd:0: 3ccba608
ls_5: 3ccba608
ssd_300_vgg/block11_box/conv_cls/BiasAdd:0: 3dba9341
ssd_300_vgg/softmax_5/Reshape:0: 3dba9341
(Unnamed Layer* 103) [Softmax]_output: 3c01101a
ps_5: 3c01101a
ssd_300_vgg/block10_box/conv_loc/BiasAdd:0: 3cbd5fef
ssd_300_vgg/block10_box/conv_loc/BiasAdd__275:0: 3cbd5fef
ls_4: 3cbd5fef
ssd_300_vgg/block10_box/conv_cls/BiasAdd:0: 3df9f632
ssd_300_vgg/block10_box/conv_cls/BiasAdd__278:0: 3df9f632
ssd_300_vgg/softmax_4/Reshape:0: 3df9f632
(Unnamed Layer* 113) [Softmax]_output: 3bf8c5a5
ps_4: 3bf8c5a5
ssd_300_vgg/block9_box/conv_loc/BiasAdd:0: 3cea1149
ssd_300_vgg/block9_box/conv_loc/BiasAdd__283:0: 3cea1149
ls_3: 3cea1149
ssd_300_vgg/block9_box/conv_cls/BiasAdd:0: 3e04fda2
ssd_300_vgg/block9_box/conv_cls/BiasAdd__286:0: 3e04fda2
ssd_300_vgg/softmax_3/Reshape:0: 3e04fda2
(Unnamed Layer* 123) [Softmax]_output: 3bea50bb
ps_3: 3bea50bb
ssd_300_vgg/block8_box/conv_loc/BiasAdd:0: 3d104dff
ssd_300_vgg/block8_box/conv_loc/BiasAdd__291:0: 3d104dff
ls_2: 3d104dff
ssd_300_vgg/block8_box/conv_cls/BiasAdd:0: 3e39ab94
ssd_300_vgg/block8_box/conv_cls/BiasAdd__294:0: 3e39ab94
ssd_300_vgg/softmax_2/Reshape:0: 3e39ab94
(Unnamed Layer* 133) [Softmax]_output: 3bf2d33c
ps_2: 3bf2d33c
